1011011010111101
1001010110010101
1011111111010111
0001000000001000
1101001101111000
0000111011000000
1011000101001111
0110111000110111
1001010011010000
1101110001010001
1010111110010010
0101101101100100
1011111101101101
0011011110100110
1000001110000110
0011101010100111
1111011110111000
1101100110110111
1101000100111011
0111110000111110
0101001011010011
0010011101100001
0000110011101000
0001101000011111
1000111101110100
0010000111110101
0000011110000000
1010101001111110
0000010010101101
1111110001111111
1001010111100110
1010111110010010
0011001000011111
0010110110111001
1110010100100100
1101100000111011
1101101111111110
1011111100110110
0011000101010011
0001000001100111
0110100100101010
1110100000010000
1101010110100100
0001101001101011
1100001110011110
1110111100110111
1101110001001101
1000000001011010
1011000100110101
1110100011000100
0100111100000000
1101010010001111
0111100011011100
0110100100001011
0110101001010000
0110110111001011
1000010000100010
1001010000111010
1111101011110010
0001010001111000
1011000111000101
1001110101011010
1111100111111000
0110101111011100
0000100000001100
1101000000111011
1010101100011101
1011111000111010
1111101101111111
0001001011001000
1010101101011101
1101001111000111
0101100000111001
1101010001100111
0011000000110111
0111100110110111
1101100011000100
1010110001000010
1101110111010110
1011110000101100
0001001011100000
0011010011010111
0101000000011000
1111100000000110
0111001110000001
1001111100100000
0001011001111110
1000011000101101
1010001100010001
0111101111000111
1010110100111011
1001010011010100
1111000011001111
1110010001000011
0010010110110000
0100010001111101
1101100001010111
0101001100111101
0010000010100010
0000011010001101
1101000010000000
0011001101110100
1000100011111101
0100000100100101
1000101011100010
0010111011100101
1001111111110010
0011011011101011
0000001000110110
1111100111110000
1010000110001100
0110001111111101
0011011100010010
1111001110010101
1101000101011111
0111101111000110
0111010100011100
1001011000011011
1100010010011101
0001111010010111
0010101010011000
0110000011011000
0111010111010010
1100001111001110
1111011100011000
1011000111001101
0110000110100100
1111001011000101
1010000110110111
0011111010011111
0010001101100101
0110001001010111
0010100101001111
1000001001000010
1000001001101110
1110001111011001
1111000111111011
1010000001011000
0000011000001000
0111000010010010
1011100110101000
0100011001010000
0001100011001011
0110100001110101
0100100110011010
0100101111000101
0001100010110011
0110000111100111
0000100010001101
1111111110101100
0000000010111001
0011001011011001
1010100100010111
0001100001001010
0101100111110011
0010100111100111
1111110110110110
1010011011110110
1100101101100101
1001100111100111
1001000011010010
1101110011000100
1000000110110011
1111010000011111
0110010001010100
0001001001010111
0100011010111010
0001101111111011
0010111111101101
1111000100111010
0110100000101001
1110111010001111
0110111001110001
1111101011111001
1001101100001001
0010111110010010
0000011011010000
1100101001000101
0011101011010000
0011100111010010
0010001000010101
1111000101100100
1110010101100100
1110101111001001
1110110000001010
1100110111000010
1100111101100100
0001001010110011
1101000010011010
1000011101111110
0111110001100111
0000001000111100
1110001111111111
0011000010100100
0110101101000110
1100101111111011
0110000010010011
1111101101110100
1010011101010111
1111100001010000
0111111001111001
1100111100101101
0100000011011000
0000111000111010
0011000010011000
0001101010100010
1011111001101111
0011001110001101
1110111111100111
0110101000011110
0101011100111010
1010101010011001
0111001111011100
0001110110001100
1101011001000101
0011010001100011
0010010100000110
1100011001111010
1101000111010011
1001010011010000
1010000101011100
0000000101100101
0101000010100011
1100101111101101
1101001111100111
0011100001111000
1001101010110000
0111000010011111
1010111111100000
0000111100111010
0111100011111110
1110010110010110
1011001011000101
1111101011001010
0100000101101111
0001111111000011
0000111010111000
1010000101011110
0101001000001101
0010101011110010
1110111101111111
0011011000010101
1100001100001111
0100101101100000
0001100000000011
0101111110101101
1100100110011100
1001100100110101
1011111000110111
1010010101110010
1100101010010100
1010111001011111
0100001000011111
1001000011100000
0110001110110100
0000001000011110
1010100010011100
1100101111000000
1011011011010101
1010010010100000
1000110001010110
0010101110011001
1001110100000110
1000100101010111
1110011001010101
0110100110101000
0111110101001001
0100011000101110
0110001001100010
1001100010000011
0011101010000010
0100110010100101
1101101111111011
0000111000111001
1111000000000111
1100110000101001
0111100011110000
1011101011111010
0101001001011101
1011100000100001
0110101100001010
0000110101110010
0011011111111101
0110011100100111
0000100010111101
0110011001100111
1111001100100111
1110110011110111
0001101110111011
0000010000001011
0100111111010111
0011100001010000
0111111011001111
0000111100010010
1011111110010000
1010001101000111
1011010011101110
0100111010000001
0010011100101100
1011111011101010
1101010100110001
1111000110111000
1001111000100010
1011001100000000
0010110001110001
1011111000011000
1011101110100101
1101001100011001
0010101011000100
0111011000110111
1101110111001011
1101110111111011
0100101101011101
1000111000101001
0011011111101010
1011000111010100
1001000110010110
0001111001001010
0001001010010110
1101100000100101
1010111011110111
1100100101011001
1111011101001011
1111100100100111
0000000011011100
1000001101010011
1111000000111011
1001101100001001
1001100001000110
1000000011111000
1101101000001001
0001001000101110
1001101101001111
1000001101010101
1001011100011010
0011101101011111
0000101110100100
1011110011011001
0110101001011001
0010100101110111
1001101110011000
0101010100010101
1000111001100011
0111101111000001
0100101011011001
0101011000101101
1000111110001100
1100000100000110
0101001100001000
0000110101111111
0010101111001101
0110101000010110
1000000000111111
1101000000111101
1010110001111000
1110100011100100
1010000001101000
1000011010011010
0111001000011001
0110111010100110
1100110000100110
1001110010100000
0111011000110100
1101010011100010
0001110001011011
1110111100011001
1011000010000101
1110010101001010
0000001100001000
1011111110101011
0100011011111101
1101011101010111
0100000100111000
0011011111000110
1011101000100011
1101100011100111
1011001100100010
1000000110011101
1000010110110000
0101001001110000
0100111101010011
0110101010010110
0010001010000110
1010000001110001
0100001100011100
0101100000000000
0010011010010010
0111011010010100
1110111001011000
0000100011111001
1111010101010100
1100101100010100
0111111110110110
0101001011110010
0101101011000010
0100001010100011
0110110001100000
0010001011100101
0011011011000001
0100111101000111
0100101000011111
1111010010010001
0011001001110111
1010000010111111
0001011011110100
1110111101101001
0011111011110111
1010000001000101
0101001011010001
1010010000001111
0011100001100011
0100000000011000
1100001011100011
1001011000111100
1001011001010001
1110111100010010
0101100001011010
0011000100011000
0111111010001100
1101011101110010
1011010111001011
0110010101011001
0111111101011001
1101100110101110
0000010111100001
1010001111011110
1110111100100001
0000000110100000
1000001100101001
1110101110101010
1111110001101001
0001011101101111
0101111010111111
1100010001111101
0001000110111011
0111000100011001
1010001000100100
0101001111100100
0111011011101010
1100100010101000
0110011011110110
1100100001100101
1101100101010100
1000101000111111
0101011011000000
1011100111111010
0101100011111110
0100110110110001
1101110111000100
0110000000010011
1110010001001101
0010110110001111
1110110100111011
0100111100101101
0001111101010010
1001011111001010
1100101110010111
1001000101111010
0000011001011000
0001101011000001
0100101110100101
1101010101110001
1010001001101000
1100011100111110
1100100100100001
1010011110101100
0001011001001000
0101010010000110
0011000000010010
0001100101010001
1100001110011110
1010010111011010
1111010111110000
1011100011101000
0010010010110001
1001101101000001
1100111010110011
0110101011000101
1111000101111100
0001011101001011
0100100010101000
0001000110000100
0101101111110101
1010010110010001
1101001001101111
1010101100011111
1011111010001000
0010011001101011
0011100000101100
0000110010000000
1000010010100111
1001001101110001
0111110110001101
0111100101011101
0101101101010000
0010011110100110
0110001100100100
0001011010111001
1110101000111000
0001111010001001
1100010100001001
1010010011111010
0101000011111110
1001001110100100
1001111011101111
0110100110000010
0001010011111011
1010111011001010
0011010101100000
1101100101010000
0001110010001110
1000001110110011
1110111100111100
0010111010000100
1010101001100100
0101000101110001
1000000011001110
1001100001110011
0000111111001001
1010100110100011
0110001010000111
1111000000000100
1101001000010101
0001010111011010
1010100100111001
1001011101101000
0111110110000100
0000010001100100
0001111000011010
1111001010100101
1101100000101000
1000101010101000
0001011001111100
0010110001001000
1100000011011011
0001000001001010
0001000100010011
0111111011000111
1011000001010000
0010000001100011
0101001001100000
0111001011001110
1110000010000011
0100111110000010
0010011001010000
1111000110001010
0101010101000001
0110110010010001
1001000000011110
1010101111001101
1111011001011100
0100011101010000
0011110010100010
0111101100000101
1100101010101011
1110000010000001
0111111111110010
0000110111111100
1110111000101110
1111011110100011
1000101111000101
1111111111101010
1010010101100100
1001111101010111
1110101101011000
0001011001100101
0001001110001000
0111000100011001
1110111001111101
0101010110110011
0000011100111000
1001111001001001
0110010011010111
0101000110100000
0100111011111111
0100010100111011
0010001000111000
0010110010111111
1101110000011111
1100011110100000
0101101000111111
0111100000001111
0100010100100111
1001111100101101
0000110011110010
0100000001010111
1111000101101010
0001010000011010
0100100110110000
0101001010110001
1100101001001010
0100100000010110
1110011010010111
0000010001111010
0110011010101011
0100101100001000
1000000000100010
1011101101011100
1110100011001001
0101100100010101
1010100000001110
1101001001110011
1011110011110100
0111100001001110
0111010000010110
0101101110101000
0010111100011010
1000001010101011
0011010100110010
1010100000100100
1101111111011010
1001000111111100
1110100011111111
0111000010000010
0010011101111000
0101000100000010
0010110111111101
0111110110001101
0001010110001101
0111110010101010
0110011000101010
1111010111101100
0100111111111111
0111011000011100
0101101110001001
1010101100110011
0001110110010101
1100011100111111
1100100101101001
0010110100010010
1110111101101111
0001101110100000
1010111001101010
1101010110001010
1100100001101000
1001111010111110
0110010011110010
0110001010000010
1100011000100010
1100011010100100
0001100100111101
0111000000010100
1010101010111110
0110010001001010
1100001011001001
1111010111001010
1000110010111010
0100001011011101
0001111001011100
1010101001101110
0000111011111101
0001100011110111
0011101001011010
0011110000001111
1000110100111000
1111100111111100
1011011010000000
0100100000100001
0011000011001000
0010000101111000
1111010110100100
0110100101001111
0101100100001000
1010011110101000
0001101001111111
1100100111110001
0100001101010100
1000100010000100
1100010100010110
1001010110110101
1101101000110010
0000000011111110
1000010010010001
0110000001111110
0001101110100100
1100110100101100
1111111110011110
1111111110111000
0101111110010100
1000111010111110
1011100001100111
1000111010111001
0010010001110100
0010000010010000
0101100011010101
0011011011001011
0111000101101010
1101110100111011
1011000011110001
0000100110110011
0001101111100000
0011100010011010
0000010101110001
1000111101001010
1110000110001001
0110000101110110
1000100001111000
0101110101001100
0001100010111000
1001100110101001
0111000110110010
1110100010111011
0111101010100011
1110100101100101
0001010010000010
0110010000011000
0110011011110011
1111111111000010
1100011010110110
0000101001111001
0001110110100000
1110111011100111
0011110001011000
1100100010000001
1000011000111011
1010001101000101
0101110000101001
0101111111110010
1101101110000001
0111001100100110
0011101000111000
0000010101011001
0101010011100101
1100011101010111
1000000100101010
0110101101001001
0101100111001101
1100000001001101
0111000000011000
1001011101001110
1101001110111100
1110111010011011
0100000100011010
0100111101111001
1001010100101011
1100000011000011
1110001001100110
0010011000001001
1100110110001101
1111011111000000
0001001000000100
0001111010111110
0001001001010110
0011110000010010
0110101111110110
1110010110000011
1011100011110011
1100000010011111
1001110111100100
1100011110101010
0010101010101010
0100011010111100
0101010011011000
1000100101000011
1011111000001011
0101001011110100
1100100100100001
0001001010100100
1001100100100100
1001011000000110
1111001011000111
1000010001100101
1111100110011111
1000101001100010
1000100000010111
0010111101011000
1000101001110000
1000000100001010
0110010111110110
1000001000001111
1100011001100001
1000111000100110
0011011010110111
0000001111100101
1111010001011001
1100100010001101
1001011111010101
1001110100010000
0101110110000000
0000100101101010
1001011111110001
0000101000110001
0101101111001101
0101111010111011
